{
  "version": "1.0",
  "truncation": null,
  "padding": null,
  "added_tokens": [
    {
      "id": 0,
      "content": "_pad_",
      "single_word": false,
      "lstrip": false,
      "rstrip": false,
      "normalized": false,
      "special": true
    },
    {
      "id": 1,
      "content": "_unk_",
      "single_word": false,
      "lstrip": false,
      "rstrip": false,
      "normalized": false,
      "special": true
    },
    {
      "id": 2,
      "content": "_cls_",
      "single_word": false,
      "lstrip": false,
      "rstrip": false,
      "normalized": false,
      "special": true
    },
    {
      "id": 3,
      "content": "_sep_",
      "single_word": false,
      "lstrip": false,
      "rstrip": false,
      "normalized": false,
      "special": true
    },
    {
      "id": 4,
      "content": "_mask_",
      "single_word": false,
      "lstrip": false,
      "rstrip": false,
      "normalized": false,
      "special": true
    }
  ],
  "normalizer": null,
  "pre_tokenizer": {
    "type": "Whitespace"
  },
  "post_processor": null,
  "decoder": null,
  "model": {
    "type": "WordPiece",
    "unk_token": "_unk_",
    "continuing_subword_prefix": "##",
    "max_input_chars_per_word": 100,
    "vocab": {
      "_pad_": 0,
      "_unk_": 1,
      "_cls_": 2,
      "_sep_": 3,
      "_mask_": 4,
      "!": 5,
      "\"": 6,
      "$": 7,
      "%": 8,
      "&": 9,
      "'": 10,
      "(": 11,
      ")": 12,
      ",": 13,
      "-": 14,
      ".": 15,
      "/": 16,
      "0": 17,
      "1": 18,
      "2": 19,
      "3": 20,
      "4": 21,
      "5": 22,
      "6": 23,
      "7": 24,
      "8": 25,
      "9": 26,
      ":": 27,
      ";": 28,
      "?": 29,
      "A": 30,
      "B": 31,
      "C": 32,
      "D": 33,
      "E": 34,
      "F": 35,
      "G": 36,
      "H": 37,
      "I": 38,
      "J": 39,
      "K": 40,
      "L": 41,
      "M": 42,
      "N": 43,
      "O": 44,
      "P": 45,
      "Q": 46,
      "R": 47,
      "S": 48,
      "T": 49,
      "U": 50,
      "V": 51,
      "W": 52,
      "X": 53,
      "Y": 54,
      "Z": 55,
      "`": 56,
      "a": 57,
      "b": 58,
      "c": 59,
      "d": 60,
      "e": 61,
      "f": 62,
      "g": 63,
      "h": 64,
      "i": 65,
      "j": 66,
      "k": 67,
      "l": 68,
      "m": 69,
      "n": 70,
      "o": 71,
      "p": 72,
      "q": 73,
      "r": 74,
      "s": 75,
      "t": 76,
      "u": 77,
      "v": 78,
      "w": 79,
      "x": 80,
      "y": 81,
      "z": 82,
      "##0": 83,
      "##t": 84,
      "##r": 85,
      "##e": 86,
      "##s": 87,
      "##d": 88,
      "##i": 89,
      "##u": 90,
      "##a": 91,
      "##l": 92,
      "##y": 93,
      "##n": 94,
      "##v": 95,
      "##o": 96,
      "##m": 97,
      "##h": 98,
      "##f": 99,
      "##c": 100,
      "##g": 101,
      "##z": 102,
      "##w": 103,
      "##b": 104,
      "##6": 105,
      "##k": 106,
      "##x": 107,
      "##p": 108,
      "##A": 109,
      "##C": 110,
      "##8": 111,
      "##S": 112,
      "##9": 113,
      "##7": 114,
      "##T": 115,
      "##L": 116,
      "##B": 117,
      "##P": 118,
      "##'": 119,
      "##q": 120,
      "##5": 121,
      "##1": 122,
      "##j": 123,
      "##.": 124,
      "##4": 125,
      "##,": 126,
      "##$": 127,
      "##N": 128,
      "##I": 129,
      "##E": 130,
      "##D": 131,
      "##G": 132,
      "##2": 133,
      "##M": 134,
      "##X": 135,
      "##!": 136,
      "##)": 137,
      "##H": 138,
      "##3": 139,
      "##;": 140,
      "##Z": 141,
      "##O": 142,
      "##U": 143,
      "##V": 144,
      "##\"": 145,
      "##F": 146,
      "##K": 147,
      "##R": 148,
      "##`": 149,
      "##he": 150,
      "the": 151,
      "##er": 152,
      "##in": 153,
      "##at": 154,
      "##on": 155,
      "##an": 156,
      "##es": 157,
      "##en": 158,
      "##or": 159,
      "##ed": 160,
      "##ar": 161,
      "of": 162,
      "in": 163,
      "to": 164,
      "##al": 165,
      "##ing": 166,
      "##re": 167,
      "##ic": 168,
      "th": 169,
      "##it": 170,
      "##ou": 171,
      "##is": 172,
      "##nd": 173,
      "##ion": 174,
      "##as": 175,
      "##om": 176,
      "##el": 177,
      "##il": 178,
      "##ent": 179,
      "##ec": 180,
      "and": 181,
      "##et": 182,
      "##st": 183,
      "on": 184,
      "##ro": 185,
      "be": 186,
      "##ve": 187,
      "is": 188,
      "##ly": 189,
      "that": 190,
      "##ot": 191,
      "for": 192,
      "The": 193,
      "it": 194,
      "##ad": 195,
      "##ay": 196,
      "##ir": 197,
      "##ut": 198,
      "##le": 199,
      "##id": 200,
      "##ac": 201,
      "re": 202,
      "##ter": 203,
      "st": 204,
      "##ation": 205,
      "##us": 206,
      "##ur": 207,
      "al": 208,
      "wh": 209,
      "##ig": 210,
      "##ers": 211,
      "##im": 212,
      "as": 213,
      "##ol": 214,
      "##ow": 215,
      "##ess": 216,
      "##her": 217,
      "##ill": 218,
      "##am": 219,
      "##ld": 220,
      "##ith": 221,
      "are": 222,
      "##ver": 223,
      "##est": 224,
      "ha": 225,
      "with": 226,
      "##per": 227,
      "con": 228,
      "##ce": 229,
      "##pp": 230,
      "at": 231,
      "##ear": 232,
      "##ain": 233,
      "##os": 234,
      "by": 235,
      "not": 236,
      "##uc": 237,
      "an": 238,
      "was": 239,
      "##em": 240,
      "have": 241,
      "pro": 242,
      "##ri": 243,
      "##and": 244,
      "com": 245,
      "##ul": 246,
      "##rom": 247,
      "##ate": 248,
      "##ts": 249,
      "##ould": 250,
      "##ator": 251,
      "this": 252,
      "ex": 253,
      "##un": 254,
      "##ial": 255,
      "##ort": 256,
      "##ich": 257,
      "##oc": 258,
      "##ard": 259,
      "##ble": 260,
      "##ag": 261,
      "##ment": 262,
      "pl": 263,
      "from": 264,
      "oper": 265,
      "##ive": 266,
      "ne": 267,
      "##ity": 268,
      "mo": 269,
      "##ep": 270,
      "##ark": 271,
      "which": 272,
      "ac": 273,
      "will": 274,
      "##ther": 275,
      "##if": 276,
      "##ven": 277,
      "##igh": 278,
      "##ell": 279,
      "tr": 280,
      "##ak": 281,
      "sa": 282,
      "##bil": 283,
      "##ect": 284,
      "In": 285,
      "pr": 286,
      "sp": 287,
      "##ans": 288,
      "##ank": 289,
      "operator": 290,
      "sh": 291,
      "their": 292,
      "can": 293,
      "##ies": 294,
      "##our": 295,
      "or": 296,
      "##art": 297,
      "It": 298,
      "##ud": 299,
      "##ant": 300,
      "##ore": 301,
      "had": 302,
      "##se": 303,
      "##iv": 304,
      "##ong": 305,
      "we": 306,
      "##ice": 307,
      "##ist": 308,
      "##ely": 309,
      "ab": 310,
      "ch": 311,
      "fin": 312,
      "##ual": 313,
      "they": 314,
      "##anc": 315,
      "per": 316,
      "##um": 317,
      "##out": 318,
      "comp": 319,
      "le": 320,
      "##ere": 321,
      "##ap": 322,
      "whe": 323,
      "##arket": 324,
      "he": 325,
      "su": 326,
      "##ding": 327,
      "##ch": 328,
      "##gh": 329,
      "has": 330,
      "##ik": 331,
      "##ome": 332,
      "been": 333,
      "market": 334,
      "ag": 335,
      "##ust": 336,
      "ad": 337,
      "se": 338,
      "##ost": 339,
      "all": 340,
      "##ime": 341,
      "said": 342,
      "un": 343,
      "more": 344,
      "year": 345,
      "##cent": 346,
      "##ang": 347,
      "##ast": 348,
      "its": 349,
      "cl": 350,
      "up": 351,
      "##ff": 352,
      "##all": 353,
      "But": 354,
      "would": 355,
      "##00": 356,
      "##ew": 357,
      "##end": 358,
      "##ough": 359,
      "##ions": 360,
      "##mer": 361,
      "##ech": 362,
      "one": 363,
      "##ight": 364,
      "percent": 365,
      "St": 366,
      "res": 367,
      "you": 368,
      "##erm": 369,
      "##ign": 370,
      "de": 371,
      "do": 372,
      "even": 373,
      "other": 374,
      "##one": 375,
      "than": 376,
      "bus": 377,
      "##ra": 378,
      "##so": 379,
      "##op": 380,
      "##wn": 381,
      "inter": 382,
      "##ations": 383,
      "his": 384,
      "##ass": 385,
      "also": 386,
      "Th": 387,
      "were": 388,
      "##th": 389,
      "them": 390,
      "##ond": 391,
      "##ock": 392,
      "##bile": 393,
      "financ": 394,
      "Cz": 395,
      "app": 396,
      "go": 397,
      "me": 398,
      "part": 399,
      "##ue": 400,
      "##nt": 401,
      "##ct": 402,
      "inc": 403,
      "##ical": 404,
      "##ous": 405,
      "##ach": 406,
      "##ame": 407,
      "operators": 408,
      "Czech": 409,
      "her": 410,
      "lik": 411,
      "rat": 412,
      "##si": 413,
      "##ure": 414,
      "##ings": 415,
      "##act": 416,
      "##ace": 417,
      "##uch": 418,
      "but": 419,
      "ph": 420,
      "time": 421,
      "##av": 422,
      "##ance": 423,
      "##ition": 424,
      ",\"": 425,
      "##ress": 426,
      "##ail": 427,
      "##xt": 428,
      "##ence": 429,
      "no": 430,
      "say": 431,
      "##to": 432,
      "##ire": 433,
      "##ber": 434,
      "##age": 435,
      "acc": 436,
      "##ake": 437,
      "##ek": 438,
      "##able": 439,
      "##port": 440,
      "##erv": 441,
      "##any": 442,
      "##ary": 443,
      "##ices": 444,
      "play": 445,
      "financial": 446,
      "ar": 447,
      "rec": 448,
      "there": 449,
      "##ens": 450,
      "##ors": 451,
      "##ase": 452,
      "mobile": 453,
      "dro": 454,
      "##od": 455,
      "##irt": 456,
      "##ack": 457,
      "##uct": 458,
      "fir": 459,
      "##uro": 460,
      "##oin": 461,
      "##itt": 462,
      "who": 463,
      "cons": 464,
      "bank": 465,
      "##bl": 466,
      "when": 467,
      "Euro": 468,
      "how": 469,
      "so": 470,
      "virt": 471,
      "##aus": 472,
      "##yp": 473,
      "##ery": 474,
      "##ork": 475,
      "##ording": 476,
      "only": 477,
      "rem": 478,
      "##usic": 479,
      "##ific": 480,
      "virtual": 481,
      "Germ": 482,
      "music": 483,
      "tw": 484,
      "us": 485,
      "##ia": 486,
      "##ok": 487,
      "##pon": 488,
      "off": 489,
      "200": 490,
      "We": 491,
      "pos": 492,
      "sign": 493,
      "##ie": 494,
      "##ian": 495,
      "##ved": 496,
      "##pl": 497,
      "##qu": 498,
      "##ones": 499,
      "##reet": 500,
      "##etw": 501,
      "##ident": 502,
      "aw": 503,
      "could": 504,
      "own": 505,
      "pre": 506,
      "some": 507,
      "well": 508,
      "##ever": 509,
      "##fter": 510,
      "##ine": 511,
      "##enc": 512,
      "inst": 513,
      "att": 514,
      "about": 515,
      "Amer": 516,
      "br": 517,
      "dec": 518,
      "qu": 519,
      "she": 520,
      "sim": 521,
      "same": 522,
      "very": 523,
      "##res": 524,
      "##ex": 525,
      "ind": 526,
      "##reat": 527,
      "new": 528,
      "like": 529,
      "Americ": 530,
      ".\"": 531,
      "am": 532,
      "bec": 533,
      "bill": 534,
      "cr": 535,
      "cell": 536,
      "em": 537,
      "im": 538,
      "now": 539,
      "out": 540,
      "rel": 541,
      "##ry": 542,
      "##iz": 543,
      "##und": 544,
      "##ning": 545,
      "##ory": 546,
      "into": 547,
      "##ish": 548,
      "##ider": 549,
      "spec": 550,
      "add": 551,
      "dropp": 552,
      "first": 553,
      "And": 554,
      "##ip": 555,
      "##arg": 556,
      "ass": 557,
      "##oll": 558,
      "##ose": 559,
      "exp": 560,
      "##ause": 561,
      "bl": 562,
      "cou": 563,
      "cap": 564,
      "dis": 565,
      "dri": 566,
      "over": 567,
      "ro": 568,
      "serv": 569,
      "##ied": 570,
      "##ng": 571,
      "##ates": 572,
      "##atter": 573,
      "##read": 574,
      "##ound": 575,
      "##ide": 576,
      "reg": 577,
      "plan": 578,
      "most": 579,
      "act": 580,
      "says": 581,
      "Com": 582,
      "gr": 583,
      "##ss": 584,
      "##ubl": 585,
      "##ab": 586,
      "##ated": 587,
      "##ord": 588,
      "years": 589,
      "interest": 590,
      "This": 591,
      "two": 592,
      "American": 593,
      ",'": 594,
      "Mar": 595,
      "pe": 596,
      "pay": 597,
      "such": 598,
      "##een": 599,
      "##eal": 600,
      "##aw": 601,
      "##cc": 602,
      "inv": 603,
      "##ict": 604,
      "alread": 605,
      "cont": 606,
      "any": 607,
      "class": 608,
      "incre": 609,
      "##ublic": 610,
      "already": 611,
      "en": 612,
      "kn": 613,
      "min": 614,
      "##pe": 615,
      "##orn": 616,
      "##itut": 617,
      "##ile": 618,
      "conc": 619,
      "shar": 620,
      "should": 621,
      "supp": 622,
      "appro": 623,
      "consider": 624,
      "awar": 625,
      "Wh": 626,
      "bu": 627,
      "bail": 628,
      "cro": 629,
      "cour": 630,
      "end": 631,
      "man": 632,
      "poin": 633,
      "und": 634,
      "way": 635,
      "##ey": 636,
      "##lud": 637,
      "##mitt": 638,
      "##ert": 639,
      "##eral": 640,
      "inf": 641,
      "##ite": 642,
      "##its": 643,
      "##etter": 644,
      "##stem": 645,
      "beg": 646,
      "what": 647,
      "##ult": 648,
      "##oci": 649,
      "##ments": 650,
      "##bility": 651,
      "week": 652,
      "again": 653,
      "##sible": 654,
      "signific": 655,
      "dropped": 656,
      ".'": 657,
      "after": 658,
      "betw": 659,
      "city": 660,
      "dep": 661,
      "ent": 662,
      "fe": 663,
      "hand": 664,
      "lo": 665,
      "long": 666,
      "mem": 667,
      "much": 668,
      "##ned": 669,
      "##ativ": 670,
      "##eness": 671,
      "##ree": 672,
      "##ister": 673,
      "##ading": 674,
      "report": 675,
      "##ational": 676,
      "##vern": 677,
      "##ular": 678,
      "next": 679,
      "ord": 680,
      "markets": 681,
      "does": 682,
      "govern": 683,
      "Europe": 684,
      "remain": 685,
      "awareness": 686,
      "under": 687,
      "between": 688,
      "MP": 689,
      "bo": 690,
      "here": 691,
      "if": 692,
      "my": 693,
      "matter": 694,
      "sy": 695,
      "sec": 696,
      "##ruct": 697,
      "##ee": 698,
      "##ient": 699,
      "##fer": 700,
      "##got": 701,
      "##ind": 702,
      "##ately": 703,
      "told": 704,
      "##iss": 705,
      "##ason": 706,
      "##ilar": 707,
      "##other": 708,
      "stew": 709,
      "street": 710,
      "##amp": 711,
      "##oss": 712,
      "##ement": 713,
      "exper": 714,
      "##ards": 715,
      "compet": 716,
      "leg": 717,
      "least": 718,
      "head": 719,
      "rates": 720,
      "according": 721,
      "German": 722,
      "similar": 723,
      "invest": 724,
      "significant": 725,
      "government": 726,
      "MP3": 727,
      "For": 728,
      "He": 729,
      "Mo": 730,
      "Min": 731,
      "On": 732,
      "Tr": 733,
      "bel": 734,
      "don": 735,
      "dif": 736,
      "ed": 737,
      "may": 738,
      "near": 739,
      "want": 740,
      "##rough": 741,
      "##duct": 742,
      "##ix": 743,
      "##og": 744,
      "##ool": 745,
      "##ced": 746,
      "##pect": 747,
      "##ines": 748,
      "##orm": 749,
      "##alk": 750,
      "##oup": 751,
      "##ists": 752,
      "##ased": 753,
      "##eld": 754,
      "##elf": 755,
      "stud": 756,
      "##ages": 757,
      "price": 758,
      "agre": 759,
      "respon": 760,
      "buses": 761,
      "##ople": 762,
      "phones": 763,
      "##irect": 764,
      "however": 765,
      "among": 766,
      "know": 767,
      "At": 768,
      "Fr": 769,
      "Pl": 770,
      "able": 771,
      "cre": 772,
      "call": 773,
      "direct": 774,
      "ear": 775,
      "eff": 776,
      "fl": 777,
      "gen": 778,
      "hum": 779,
      "loss": 780,
      "make": 781,
      "many": 782,
      "our": 783,
      "pol": 784,
      "public": 785,
      "sc": 786,
      "te": 787,
      "tel": 788,
      "##ron": 789,
      "##red": 790,
      "##vel": 791,
      "##mun": 792,
      "##ful": 793,
      "##ky": 794,
      "##pt": 795,
      "##hen": 796,
      "##eng": 797,
      "##ally": 798,
      "through": 799,
      "##ise": 800,
      "##ecess": 801,
      "##state": 802,
      "##ade": 803,
      "##tern": 804,
      "##uring": 805,
      "##old": 806,
      "prob": 807,
      "Ital": 808,
      "whether": 809,
      "##chool": 810,
      "##ensive": 811,
      "banks": 812,
      "because": 813,
      "##ngl": 814,
      "people": 815,
      "system": 816,
      "##goti": 817,
      "Bank": 818,
      "Ch": 819,
      "Hyp": 820,
      "If": 821,
      "Mr": 822,
      "Mond": 823,
      "Real": 824,
      "She": 825,
      "co": 826,
      "cor": 827,
      "four": 828,
      "just": 829,
      "last": 830,
      "necess": 831,
      "vot": 832,
      "##day": 833,
      "##ves": 834,
      "##man": 835,
      "##co": 836,
      "##bank": 837,
      "##ats": 838,
      "##als": 839,
      "though": 840,
      "##ision": 841,
      "##ently": 842,
      "being": 843,
      "form": 844,
      "They": 845,
      "There": 846,
      "##irl": 847,
      "reason": 848,
      "stock": 849,
      "##estion": 850,
      "##osed": 851,
      "##ucation": 852,
      "##ands": 853,
      "negoti": 854,
      "spe": 855,
      "charg": 856,
      "where": 857,
      "sub": 858,
      "includ": 859,
      "##ically": 860,
      "phone": 861,
      "##resent": 862,
      "count": 863,
      "feel": 864,
      "order": 865,
      "Hypo": 866,
      "Monday": 867,
      "Acc": 868,
      "Estate": 869,
      "Engl": 870,
      "Rep": 871,
      "US": 872,
      "cas": 873,
      "des": 874,
      "fact": 875,
      "get": 876,
      "less": 877,
      "law": 878,
      "run": 879,
      "sur": 880,
      "use": 881,
      "work": 882,
      "##te": 883,
      "##ty": 884,
      "##ru": 885,
      "##rit": 886,
      "##ious": 887,
      "##af": 888,
      "##ax": 889,
      "##air": 890,
      "##ove": 891,
      "##hing": 892,
      "##ft": 893,
      "##fic": 894,
      "##LB": 895,
      "##ject": 896,
      "thous": 897,
      "##ities": 898,
      "ref": 899,
      "rep": 900,
      "state": 901,
      "##urn": 902,
      "prov": 903,
      "prog": 904,
      "##ights": 905,
      "##ually": 906,
      "company": 907,
      "likely": 908,
      "player": 909,
      "players": 910,
      "soon": 911,
      "##ency": 912,
      "institut": 913,
      "question": 914,
      "billion": 915,
      "rele": 916,
      "group": 917,
      "support": 918,
      "begin": 919,
      "board": 920,
      "losses": 921,
      "According": 922,
      "English": 923,
      "19": 924,
      "Al": 925,
      "An": 926,
      "BS": 927,
      "Ext": 928,
      "Ob": 929,
      "Un": 930,
      "West": 931,
      "back": 932,
      "cust": 933,
      "cert": 934,
      "day": 935,
      "did": 936,
      "fear": 937,
      "fun": 938,
      "mon": 939,
      "op": 940,
      "opp": 941,
      "pass": 942,
      "ret": 943,
      "school": 944,
      "take": 945,
      "ve": 946,
      "your": 947,
      "##ib": 948,
      "##vers": 949,
      "##ood": 950,
      "##con": 951,
      "##ge": 952,
      "##ather": 953,
      "##ale": 954,
      "##ick": 955,
      "##icial": 956,
      "##ited": 957,
      "##omers": 958,
      "##road": 959,
      "##oth": 960,
      "real": 961,
      "##ower": 962,
      "conf": 963,
      "##riv": 964,
      "##ife": 965,
      "trav": 966,
      "saf": 967,
      "compan": 968,
      "##aps": 969,
      "##ange": 970,
      "Street": 971,
      "That": 972,
      "brain": 973,
      "news": 974,
      "emot": 975,
      "service": 976,
      "services": 977,
      "##orney": 978,
      "bailout": 979,
      "crown": 980,
      "points": 981,
      "look": 982,
      "education": 983,
      "agreement": 984,
      ").": 985,
      "As": 986,
      "Fin": 987,
      "Jap": 988,
      "Land": 989,
      "Me": 990,
      "Pol": 991,
      "Sy": 992,
      "aut": 993,
      "card": 994,
      "cost": 995,
      "dem": 996,
      "div": 997,
      "due": 998,
      "during": 999,
      "el": 1000,
      "ev": 1001,
      "ever": 1002,
      "five": 1003,
      "few": 1004,
      "fund": 1005,
      "gain": 1006,
      "girl": 1007,
      "home": 1008,
      "must": 1009,
      "num": 1010,
      "netw": 1011,
      "par": 1012,
      "sol": 1013,
      "ter": 1014,
      "term": 1015,
      "vers": 1016,
      "##ians": 1017,
      "##lin": 1018,
      "##most": 1019,
      "##way": 1020,
      "##pr": 1021,
      "##ph": 1022,
      "##ply": 1023,
      "##hem": 1024,
      "then": 1025,
      "##ink": 1026,
      "##ater": 1027,
      "##ature": 1028,
      "##esbank": 1029,
      "##ared": 1030,
      "those": 1031,
      "##ital": 1032,
      "##omet": 1033,
      "##ily": 1034,
      "##ention": 1035,
      "##ecom": 1036,
      "##ects": 1037,
      "beh": 1038,
      "reach": 1039,
      "##ures": 1040,
      "##ama": 1041,
      "##veral": 1042,
      "happ": 1043,
      "##aking": 1044,
      "Intern": 1045,
      "prices": 1046,
      "abduct": 1047,
      "find": 1048,
      "##outh": 1049,
      "several": 1050,
      "Stock": 1051,
      "partic": 1052,
      "rather": 1053,
      "record": 1054,
      "offer": 1055,
      "possible": 1056,
      "index": 1057,
      "added": 1058,
      "room": 1059,
      "concer": 1060,
      "##mitted": 1061,
      "##ociet": 1062,
      "##atives": 1063,
      "experi": 1064,
      "belie": 1065,
      "nearly": 1066,
      "Place": 1067,
      "creation": 1068,
      "effect": 1069,
      "general": 1070,
      "##munic": 1071,
      "vote": 1072,
      "##resentatives": 1073,
      "Extra": 1074,
      "Obama": 1075,
      "WestLB": 1076,
      "customers": 1077,
      "funct": 1078,
      "##conom": 1079,
      "travel": 1080,
      "companies": 1081,
      "Japan": 1082,
      "network": 1083,
      "Internet": 1084,
      "After": 1085,
      "Bus": 1086,
      "Even": 1087,
      "New": 1088,
      "Off": 1089,
      "Pr": 1090,
      "Sh": 1091,
      "When": 1092,
      "car": 1093,
      "camp": 1094,
      "doll": 1095,
      "give": 1096,
      "hard": 1097,
      "high": 1098,
      "host": 1099,
      "id": 1100,
      "lear": 1101,
      "lost": 1102,
      "lang": 1103,
      "letter": 1104,
      "made": 1105,
      "ob": 1106,
      "pers": 1107,
      "sl": 1108,
      "sen": 1109,
      "six": 1110,
      "somet": 1111,
      "societ": 1112,
      "talk": 1113,
      "##rance": 1114,
      "##ev": 1115,
      "##io": 1116,
      "##aid": 1117,
      "##val": 1118,
      "##ving": 1119,
      "##med": 1120,
      "##miss": 1121,
      "##fore": 1122,
      "##gu": 1123,
      "##ina": 1124,
      "##ating": 1125,
      "##ative": 1126,
      "##ony": 1127,
      "top": 1128,
      "three": 1129,
      "##oun": 1130,
      "##ouse": 1131,
      "##asing": 1132,
      "##eli": 1133,
      "##iling": 1134,
      "##ilding": 1135,
      "##ents": 1136,
      "##ecut": 1137,
      "##vement": 1138,
      "former": 1139,
      "requ": 1140,
      "almost": 1141,
      "while": 1142,
      "##olog": 1143,
      "##amb": 1144,
      "another": 1145,
      "proble": 1146,
      "##ried": 1147,
      "##ators": 1148,
      "place": 1149,
      "need": 1150,
      "mod": 1151,
      "##eph": 1152,
      "trans": 1153,
      "short": 1154,
      "above": 1155,
      "adv": 1156,
      "##ends": 1157,
      "accident": 1158,
      "used": 1159,
      "official": 1160,
      "attorney": 1161,
      "imp": 1162,
      "special": 1163,
      "addition": 1164,
      "expensive": 1165,
      "capital": 1166,
      "Comp": 1167,
      "buy": 1168,
      "court": 1169,
      "course": 1170,
      "against": 1171,
      "memory": 1172,
      "steward": 1173,
      "competit": 1174,
      "humans": 1175,
      "necessary": 1176,
      "negotiations": 1177,
      "cases": 1178,
      "beginning": 1179,
      "certain": 1180,
      "month": 1181,
      "crowns": 1182,
      "Landesbank": 1183,
      "every": 1184,
      "number": 1185,
      "##ecommunic": 1186,
      "dollar": 1187,
      "langu": 1188,
      "problem": 1189,
      "Bo": 1190,
      "Bay": 1191,
      "Cong": 1192,
      "Dep": 1193,
      "Dek": 1194,
      "Eg": 1195,
      "From": 1196,
      "How": 1197,
      "IT": 1198,
      "OP": 1199,
      "Qu": 1200,
      "che": 1201,
      "cur": 1202,
      "case": 1203,
      "econom": 1204,
      "fur": 1205,
      "fall": 1206,
      "great": 1207,
      "hal": 1208,
      "hear": 1209,
      "hop": 1210,
      "join": 1211,
      "list": 1212,
      "mer": 1213,
      "mill": 1214,
      "might": 1215,
      "making": 1216,
      "nature": 1217,
      "occ": 1218,
      "ser": 1219,
      "typ": 1220,
      "wor": 1221,
      "war": 1222,
      "yet": 1223,
      "##ior": 1224,
      "##ield": 1225,
      "##aper": 1226,
      "##aign": 1227,
      "##ability": 1228,
      "##lad": 1229,
      "##ner": 1230,
      "##not": 1231,
      "##cess": 1232,
      "##ward": 1233,
      "##king": 1234,
      "##por": 1235,
      "##hes": 1236,
      "these": 1237,
      "##ath": 1238,
      "##ana": 1239,
      "##ants": 1240,
      "##ories": 1241,
      "##arter": 1242,
      "too": 1243,
      "##aly": 1244,
      "things": 1245,
      "##ount": 1246,
      "##isl": 1247,
      "##isis": 1248,
      "before": 1249,
      "str": 1250,
      "still": 1251,
      "##ured": 1252,
      "##igg": 1253,
      "##imes": 1254,
      "##imately": 1255,
      "##own": 1256,
      "without": 1257,
      "const": 1258,
      "##anding": 1259,
      "##ull": 1260,
      "ext": 1261,
      "##ortun": 1262,
      "##ague": 1263,
      "trading": 1264,
      "##ected": 1265,
      "##ection": 1266,
      "pres": 1267,
      "pract": 1268,
      "space": 1269,
      "##istry": 1270,
      "left": 1271,
      "##change": 1272,
      "seem": 1273,
      "##anger": 1274,
      "##ought": 1275,
      "dev": 1276,
      "def": 1277,
      "Czechia": 1278,
      "##sibility": 1279,
      "##ressed": 1280,
      "argu": 1281,
      "Euros": 1282,
      "##ypt": 1283,
      "using": 1284,
      "cred": 1285,
      "crisis": 1286,
      "##ollow": 1287,
      "coupon": 1288,
      "disc": 1289,
      "driver": 1290,
      "drivers": 1291,
      "activ": 1292,
      "Marco": 1293,
      "increase": 1294,
      "##mittee": 1295,
      "inform": 1296,
      "entire": 1297,
      "entrance": 1298,
      "second": 1299,
      "legisl": 1300,
      "Minister": 1301,
      "diffic": 1302,
      "Frank": 1303,
      "called": 1304,
      "##kyB": 1305,
      "Italian": 1306,
      "feelings": 1307,
      "thousand": 1308,
      "institutions": 1309,
      "BSkyB": 1310,
      "experience": 1311,
      "Bush": 1312,
      "Office": 1313,
      "campaign": 1314,
      "societies": 1315,
      "##mission": 1316,
      "language": 1317,
      "Congress": 1318,
      "Deka": 1319,
      "Egypt": 1320,
      "ITV": 1321,
      "OPC": 1322,
      "million": 1323,
      "difficult": 1324,
      "12": 1325,
      "30": 1326,
      "700": 1327,
      "Aval": 1328,
      "Bec": 1329,
      "El": 1330,
      "Ex": 1331,
      "Fir": 1332,
      "Hel": 1333,
      "House": 1334,
      "Hamb": 1335,
      "Ind": 1336,
      "Lo": 1337,
      "Of": 1338,
      "Other": 1339,
      "Sud": 1340,
      "Some": 1341,
      "Sund": 1342,
      "You": 1343,
      "better": 1344,
      "det": 1345,
      "dark": 1346,
      "far": 1347,
      "hig": 1348,
      "loc": 1349,
      "litt": 1350,
      "life": 1351,
      "main": 1352,
      "mach": 1353,
      "old": 1354,
      "red": 1355,
      "sm": 1356,
      "val": 1357,
      "wr": 1358,
      "##ren": 1359,
      "##ram": 1360,
      "##rain": 1361,
      "##eb": 1362,
      "##ein": 1363,
      "##secut": 1364,
      "##ible": 1365,
      "##up": 1366,
      "##lo": 1367,
      "##hie": 1368,
      "##fa": 1369,
      "##cl": 1370,
      "##wing": 1371,
      "##bers": 1372,
      "##iness": 1373,
      "##ince": 1374,
      "##ese": 1375,
      "int": 1376,
      "ins": 1377,
      "threat": 1378,
      "##ither": 1379,
      "##ional": 1380,
      "##els": 1381,
      "##ential": 1382,
      "##ety": 1383,
      "##urg": 1384,
      "##urb": 1385,
      "##ested": 1386,
      "##cept": 1387,
      "ann": 1388,
      "anim": 1389,
      "##ember": 1390,
      "##ries": 1391,
      "comm": 1392,
      "##ateg": 1393,
      "##unch": 1394,
      "achie": 1395,
      "prim": 1396,
      "press": 1397,
      "cannot": 1398,
      "org": 1399,
      "##udd": 1400,
      "suff": 1401,
      "agency": 1402,
      "seven": 1403,
      "seats": 1404,
      "others": 1405,
      "business": 1406,
      "intern": 1407,
      "appear": 1408,
      "mean": 1409,
      "party": 1410,
      "rats": 1411,
      "recently": 1412,
      "drop": 1413,
      "2007": 1414,
      "position": 1415,
      "declin": 1416,
      "quarter": 1417,
      "##ize": 1418,
      "specific": 1419,
      "block": 1420,
      "regul": 1421,
      "##ably": 1422,
      "building": 1423,
      "point": 1424,
      "infl": 1425,
      "members": 1426,
      "reported": 1427,
      "##ularly": 1428,
      "##ferent": 1429,
      "stewards": 1430,
      "legal": 1431,
      "investig": 1432,
      "Mobile": 1433,
      "Trans": 1434,
      "##pective": 1435,
      "polit": 1436,
      "##ront": 1437,
      "speed": 1438,
      "including": 1439,
      "countries": 1440,
      "progress": 1441,
      "return": 1442,
      "##rivate": 1443,
      "newsp": 1444,
      "auth": 1445,
      "happen": 1446,
      "something": 1447,
      "##ilingual": 1448,
      "attorneys": 1449,
      "further": 1450,
      "half": 1451,
      "legislators": 1452,
      "Avalon": 1453,
      "Because": 1454,
      "First": 1455,
      "Hamburg": 1456,
      "Sunday": 1457,
      "little": 1458,
      "50": 1459,
      "Ad": 1460,
      "Asi": 1461,
      "By": 1462,
      "City": 1463,
      "Dow": 1464,
      "His": 1465,
      "Has": 1466,
      "Hong": 1467,
      "Jer": 1468,
      "Kong": 1469,
      "No": 1470,
      "Op": 1471,
      "Pro": 1472,
      "Pres": 1473,
      "Rand": 1474,
      "Sp": 1475,
      "Sec": 1476,
      "Tel": 1477,
      "York": 1478,
      "bre": 1479,
      "both": 1480,
      "bilingual": 1481,
      "caus": 1482,
      "dom": 1483,
      "danger": 1484,
      "eas": 1485,
      "fam": 1486,
      "follow": 1487,
      "gi": 1488,
      "hot": 1489,
      "him": 1490,
      "hour": 1491,
      "hist": 1492,
      "kill": 1493,
      "line": 1494,
      "later": 1495,
      "miss": 1496,
      "night": 1497,
      "name": 1498,
      "national": 1499,
      "pur": 1500,
      "prom": 1501,
      "rest": 1502,
      "song": 1503,
      "sens": 1504,
      "vis": 1505,
      "won": 1506,
      "##til": 1507,
      "##ea": 1508,
      "##eh": 1509,
      "##sc": 1510,
      "##sel": 1511,
      "##iec": 1512,
      "##iew": 1513,
      "##uce": 1514,
      "##ugh": 1515,
      "##ai": 1516,
      "##az": 1517,
      "##ave": 1518,
      "##abl": 1519,
      "##ys": 1520,
      "##ners": 1521,
      "##nings": 1522,
      "##hip": 1523,
      "##fur": 1524,
      "##bum": 1525,
      "##atur": 1526,
      "##ann": 1527,
      "##anz": 1528,
      "##esday": 1529,
      "##enn": 1530,
      "##are": 1531,
      "##rem": 1532,
      "thing": 1533,
      "thus": 1534,
      "think": 1535,
      "##itial": 1536,
      "##ild": 1537,
      "##row": 1538,
      "beer": 1539,
      "##aders": 1540,
      "##ird": 1541,
      "##ution": 1542,
      "sta": 1543,
      "step": 1544,
      "alone": 1545,
      "album": 1546,
      "##imum": 1547,
      "##olved": 1548,
      "ant": 1549,
      "prof": 1550,
      "come": 1551,
      "comes": 1552,
      "examp": 1553,
      "exchange": 1554,
      "##unk": 1555,
      "##aker": 1556,
      "Inst": 1557,
      "##artment": 1558,
      "##ivers": 1559,
      "##ively": 1560,
      "##istr": 1561,
      "chang": 1562,
      "child": 1563,
      "##anced": 1564,
      "leading": 1565,
      "sug": 1566,
      "##ikh": 1567,
      "upon": 1568,
      "##endent": 1569,
      "deal": 1570,
      "devel": 1571,
      "themsel": 1572,
      "meas": 1573,
      "meant": 1574,
      "##portant": 1575,
      "whole": 1576,
      "Germans": 1577,
      "Germany": 1578,
      "2008": 1579,
      "##idently": 1580,
      "prep": 1581,
      "decre": 1582,
      "become": 1583,
      "important": 1584,
      "relativ": 1585,
      "##ized": 1586,
      "##ization": 1587,
      "dropping": 1588,
      "##ounds": 1589,
      "##aba": 1590,
      "increasing": 1591,
      "What": 1592,
      "##ociation": 1593,
      "handle": 1594,
      "European": 1595,
      "##ruction": 1596,
      "competition": 1597,
      "Mobil": 1598,
      "Ministry": 1599,
      "different": 1600,
      "wanted": 1601,
      "responsible": 1602,
      "earnings": 1603,
      "team": 1604,
      "text": 1605,
      "##engers": 1606,
      "probe": 1607,
      "Sheikh": 1608,
      "corre": 1609,
      "reasons": 1610,
      "Representatives": 1611,
      "release": 1612,
      "open": 1613,
      "safety": 1614,
      "Meat": 1615,
      "Poland": 1616,
      "elect": 1617,
      "territ": 1618,
      "abductors": 1619,
      "function": 1620,
      "idea": 1621,
      "perspective": 1622,
      "##ecommunications": 1623,
      "dollars": 1624,
      "Depfa": 1625,
      "However": 1626,
      "curr": 1627,
      "heard": 1628,
      "hope": 1629,
      "type": 1630,
      "devices": 1631,
      "entirely": 1632,
      "Frankfur": 1633,
      "Helaba": 1634,
      "Loaf": 1635,
      "higher": 1636,
      "valid": 1637,
      "pressure": 1638,
      "influ": 1639,
      "Transport": 1640,
      "author": 1641,
      "Hasina": 1642,
      "Randle": 1643,
      "given": 1644,
      "example": 1645,
      "themselves": 1646,
      "Frankfurt": 1647,
      "!'": 1648,
      "15": 1649,
      "100": 1650,
      "20": 1651,
      "40": 1652,
      "Ass": 1653,
      "Apr": 1654,
      "BB": 1655,
      "Brit": 1656,
      "Co": 1657,
      "CT": 1658,
      "Cour": 1659,
      "Denn": 1660,
      "Gol": 1661,
      "High": 1662,
      "Is": 1663,
      "Jun": 1664,
      "Mun": 1665,
      "Not": 1666,
      "Ol": 1667,
      "Pa": 1668,
      "PM": 1669,
      "Pal": 1670,
      "Ry": 1671,
      "So": 1672,
      "Serv": 1673,
      "South": 1674,
      "With": 1675,
      "av": 1676,
      "air": 1677,
      "aff": 1678,
      "bas": 1679,
      "best": 1680,
      "bond": 1681,
      "broad": 1682,
      "cel": 1683,
      "cle": 1684,
      "cort": 1685,
      "coll": 1686,
      "cards": 1687,
      "categ": 1688,
      "date": 1689,
      "doc": 1690,
      "dra": 1691,
      "eight": 1692,
      "equ": 1693,
      "fut": 1694,
      "fif": 1695,
      "fav": 1696,
      "fail": 1697,
      "gra": 1698,
      "held": 1699,
      "ke": 1700,
      "lot": 1701,
      "lim": 1702,
      "larg": 1703,
      "lower": 1704,
      "ma": 1705,
      "mor": 1706,
      "med": 1707,
      "mom": 1708,
      "met": 1709,
      "mess": 1710,
      "mort": 1711,
      "max": 1712,
      "nor": 1713,
      "private": 1714,
      "rans": 1715,
      "right": 1716,
      "sel": 1717,
      "set": 1718,
      "suc": 1719,
      "sep": 1720,
      "self": 1721,
      "ten": 1722,
      "turn": 1723,
      "tried": 1724,
      "times": 1725,
      "vict": 1726,
      "went": 1727,
      "walk": 1728,
      "##ten": 1729,
      "##tle": 1730,
      "##ric": 1731,
      "##rate": 1732,
      "##rast": 1733,
      "##rary": 1734,
      "##ead": 1735,
      "##sy": 1736,
      "##uments": 1737,
      "##lv": 1738,
      "##ying": 1739,
      "##haps": 1740,
      "##fortun": 1741,
      "##ces": 1742,
      "##ger": 1743,
      "##ked": 1744,
      "##ple": 1745,
      "##AX": 1746,
      "##jor": 1747,
      "##hed": 1748,
      "##ered": 1749,
      "##erise": 1750,
      "##ini": 1751,
      "##inet": 1752,
      "##ending": 1753,
      "##ored": 1754,
      "initial": 1755,
      "tour": 1756,
      "##ales": 1757,
      "##ret": 1758,
      "##ics": 1759,
      "##itive": 1760,
      "##ism": 1761,
      "##ison": 1762,
      "##ises": 1763,
      "##oman": 1764,
      "##ets": 1765,
      "##etition": 1766,
      "ones": 1767,
      "onto": 1768,
      "##rol": 1769,
      "##vey": 1770,
      "##irmed": 1771,
      "##utes": 1772,
      "rev": 1773,
      "react": 1774,
      "stake": 1775,
      "standing": 1776,
      "##usal": 1777,
      "##urity": 1778,
      "##urned": 1779,
      "why": 1780,
      "##oles": 1781,
      "area": 1782,
      "##earch": 1783,
      "##uck": 1784,
      "prop": 1785,
      "prove": 1786,
      "prosecut": 1787,
      "##ria": 1788,
      "##rib": 1789,
      "exist": 1790,
      "plac": 1791,
      "operation": 1792,
      "movement": 1793,
      "##ellow": 1794,
      "##ector": 1795,
      "spok": 1796,
      "##istance": 1797,
      "abroad": 1798,
      "final": 1799,
      "##ancial": 1800,
      "compl": 1801,
      "##chase": 1802,
      "##cholog": 1803,
      "adm": 1804,
      "seat": 1805,
      "unable": 1806,
      "univers": 1807,
      "close": 1808,
      "client": 1809,
      "##mert": 1810,
      "States": 1811,
      "result": 1812,
      "dead": 1813,
      "##thing": 1814,
      "appeal": 1815,
      "going": 1816,
      "phys": 1817,
      "around": 1818,
      "recent": 1819,
      "##ody": 1820,
      "2006": 1821,
      "##ief": 1822,
      "##encard": 1823,
      "attack": 1824,
      "attention": 1825,
      "decision": 1826,
      "emph": 1827,
      "assistance": 1828,
      "capt": 1829,
      "register": 1830,
      "##abinet": 1831,
      "interests": 1832,
      "Marek": 1833,
      "peace": 1834,
      "contin": 1835,
      "minus": 1836,
      "shares": 1837,
      "sharply": 1838,
      "approved": 1839,
      "underst": 1840,
      "##ructure": 1841,
      "Heights": 1842,
      "Trerise": 1843,
      "study": 1844,
      "students": 1845,
      "flight": 1846,
      "human": 1847,
      "scient": 1848,
      "teleph": 1849,
      "thought": 1850,
      "speaker": 1851,
      "charged": 1852,
      "country": 1853,
      "working": 1854,
      "program": 1855,
      "United": 1856,
      "opin": 1857,
      "passengers": 1858,
      "confirmed": 1859,
      "safe": 1860,
      "emotional": 1861,
      "Financial": 1862,
      "Sylv": 1863,
      "costs": 1864,
      "divor": 1865,
      "evidently": 1866,
      "solution": 1867,
      "##ways": 1868,
      "concerned": 1869,
      "believe": 1870,
      "Japanese": 1871,
      "Prague": 1872,
      "senior": 1873,
      "officials": 1874,
      "everything": 1875,
      "Quaid": 1876,
      "economy": 1877,
      "jointer": 1878,
      "listen": 1879,
      "world": 1880,
      "president": 1881,
      "practically": 1882,
      "defin": 1883,
      "activities": 1884,
      "information": 1885,
      "Index": 1886,
      "determ": 1887,
      "announ": 1888,
      "animals": 1889,
      "common": 1890,
      "regulator": 1891,
      "Opencard": 1892,
      "break": 1893,
      "domin": 1894,
      "hours": 1895,
      "killed": 1896,
      "purchase": 1897,
      "anthem": 1898,
      "decrease": 1899,
      "Mobilking": 1900,
      "correct": 1901,
      "influence": 1902,
      "April": 1903,
      "BBC": 1904,
      "CTO": 1905,
      "Court": 1906,
      "Dennis": 1907,
      "Golan": 1908,
      "June": 1909,
      "Munich": 1910,
      "Olmert": 1911,
      "Paul": 1912,
      "Ryan": 1913,
      "documents": 1914,
      "limited": 1915,
      "major": 1916,
      "morning": 1917,
      "moment": 1918,
      "mortg": 1919,
      "ransom": 1920,
      "success": 1921,
      "separ": 1922,
      "##sycholog": 1923,
      "##fortunately": 1924,
      "emphas": 1925,
      "Sylvana": 1926,
      "\".": 1927,
      "000": 1928,
      "10": 1929,
      "16": 1930,
      "18": 1931,
      "11": 1932,
      "35": 1933,
      "Bang": 1934,
      "Bav": 1935,
      "Corn": 1936,
      "Dem": 1937,
      "DAX": 1938,
      "En": 1939,
      "East": 1940,
      "Gr": 1941,
      "Ge": 1942,
      "GB": 1943,
      "Gen": 1944,
      "Hol": 1945,
      "Jol": 1946,
      "Just": 1947,
      "Jones": 1948,
      "Le": 1949,
      "Law": 1950,
      "Ms": 1951,
      "Market": 1952,
      "Most": 1953,
      "Ne": 1954,
      "National": 1955,
      "Re": 1956,
      "Res": 1957,
      "Sen": 1958,
      "Six": 1959,
      "Sony": 1960,
      "To": 1961,
      "Uk": 1962,
      "UE": 1963,
      "Wed": 1964,
      "Wies": 1965,
      "bat": 1966,
      "bigg": 1967,
      "bought": 1968,
      "da": 1969,
      "done": 1970,
      "deli": 1971,
      "down": 1972,
      "est": 1973,
      "ess": 1974,
      "fon": 1975,
      "fre": 1976,
      "fri": 1977,
      "father": 1978,
      "field": 1979,
      "full": 1980,
      "gu": 1981,
      "hon": 1982,
      "hit": 1983,
      "hers": 1984,
      "hol": 1985,
      "hund": 1986,
      "la": 1987,
      "late": 1988,
      "lack": 1989,
      "lines": 1990,
      "lunch": 1991,
      "mil": 1992,
      "mot": 1993,
      "mag": 1994,
      "mang": 1995,
      "mother": 1996,
      "mention": 1997,
      "none": 1998,
      "nine": 1999,
      "pot": 2000,
      "post": 2001,
      "pop": 2002,
      "power": 2003,
      "psycholog": 2004,
      "qual": 2005,
      "rad": 2006,
      "sing": 2007,
      "sit": 2008,
      "side": 2009,
      "since": 2010,
      "sounds": 2011,
      "sector": 2012,
      "tak": 2013,
      "tied": 2014,
      "voc": 2015,
      "wro": 2016,
      "word": 2017,
      "##ting": 2018,
      "##tain": 2019,
      "##timately": 2020,
      "##tember": 2021,
      "##ral": 2022,
      "##rist": 2023,
      "##round": 2024,
      "##ef": 2025,
      "##son": 2026,
      "##sed": 2027,
      "##sue": 2028,
      "##ug": 2029,
      "##uly": 2030,
      "##ah": 2031,
      "##aim": 2032,
      "##led": 2033,
      "##ltimately": 2034,
      "##yers": 2035,
      "##nesday": 2036,
      "##vin": 2037,
      "##vit": 2038,
      "##vent": 2039,
      "##vious": 2040,
      "##oing": 2041,
      "##oot": 2042,
      "##ober": 2043,
      "##fied": 2044,
      "##cing": 2045,
      "##ged": 2046,
      "##get": 2047,
      "##ware": 2048,
      "##body": 2049,
      "##ximately": 2050,
      "##ps": 2051,
      "##pan": 2052,
      "##pite": 2053,
      "##pensive": 2054,
      "##FA": 2055,
      "##atic": 2056,
      "##onst": 2057,
      "##ane": 2058,
      "##esh": 2059,
      "##ena": 2060,
      "##eda": 2061,
      "##arian": 2062,
      "##arily": 2063,
      "inex": 2064,
      "third": 2065,
      "##itions": 2066,
      "##itors": 2067,
      "##isely": 2068,
      "##isition": 2069,
      "##omaly": 2070,
      "##stein": 2071,
      "once": 2072,
      "issue": 2073,
      "##lym": 2074,
      "##ads": 2075,
      "##irc": 2076,
      "##ute": 2077,
      "##ides": 2078,
      "##acity": 2079,
      "stat": 2080,
      "stri": 2081,
      "start": 2082,
      "stop": 2083,
      "##usion": 2084,
      "alle": 2085,
      "always": 2086,
      "asked": 2087,
      "##ows": 2088,
      "##ams": 2089,
      "##vered": 2090,
      "##verage": 2091,
      "##ests": 2092,
      "having": 2093,
      "##ears": 2094,
      "##ained": 2095,
      "##osing": 2096,
      "notice": 2097,
      "##anded": 2098,
      "committee": 2099,
      "##ults": 2100,
      "exam": 2101,
      "expl": 2102,
      "neither": 2103,
      "move": 2104,
      "##arking": 2105,
      "acqu": 2106,
      "##ified": 2107,
      "##ifically": 2108,
      "train": 2109,
      "trick": 2110,
      "save": 2111,
      "prud": 2112,
      "spot": 2113,
      "spend": 2114,
      "##iving": 2115,
      "abs": 2116,
      "abus": 2117,
      "cho": 2118,
      "chart": 2119,
      "chip": 2120,
      "chair": 2121,
      "permitted": 2122,
      "##apers": 2123,
      "sure": 2124,
      "ago": 2125,
      "admitted": 2126,
      "until": 2127,
      "itself": 2128,
      "##alling": 2129,
      "##ightly": 2130,
      "Stud": 2131,
      "results": 2132,
      "young": 2133,
      "goal": 2134,
      "good": 2135,
      "means": 2136,
      "##ailable": 2137,
      "##erved": 2138,
      "plays": 2139,
      "art": 2140,
      "arises": 2141,
      "firm": 2142,
      "##itten": 2143,
      "user": 2144,
      "usually": 2145,
      "poss": 2146,
      "possibility": 2147,
      "signs": 2148,
      "##plo": 2149,
      "##play": 2150,
      "away": 2151,
      "pref": 2152,
      "brought": 2153,
      "simply": 2154,
      "amount": 2155,
      "crit": 2156,
      "emplo": 2157,
      "##izes": 2158,
      "assum": 2159,
      "expected": 2160,
      "blood": 2161,
      "capacity": 2162,
      "role": 2163,
      "actions": 2164,
      "Committee": 2165,
      "Commission": 2166,
      "interested": 2167,
      "classic": 2168,
      "##itute": 2169,
      "conclud": 2170,
      "supposed": 2171,
      "approach": 2172,
      "approximately": 2173,
      "considering": 2174,
      "cross": 2175,
      "began": 2176,
      "depends": 2177,
      "department": 2178,
      "dependent": 2179,
      "longer": 2180,
      "security": 2181,
      "headph": 2182,
      "investors": 2183,
      "significantly": 2184,
      "responsibility": 2185,
      "create": 2186,
      "directors": 2187,
      "early": 2188,
      "flights": 2189,
      "telev": 2190,
      "telecommunications": 2191,
      "probes": 2192,
      "Italians": 2193,
      "corpor": 2194,
      "fourth": 2195,
      "justice": 2196,
      "necessarily": 2197,
      "stocks": 2198,
      "charges": 2199,
      "subject": 2200,
      "Republic": 2201,
      "runs": 2202,
      "running": 2203,
      "survey": 2204,
      "thousands": 2205,
      "refin": 2206,
      "representatives": 2207,
      "provider": 2208,
      "released": 2209,
      "Alber": 2210,
      "Unfortunately": 2211,
      "didn": 2212,
      "##ibrary": 2213,
      "brainstem": 2214,
      "emotions": 2215,
      "Finance": 2216,
      "Meg": 2217,
      "demanded": 2218,
      "else": 2219,
      "funding": 2220,
      "parts": 2221,
      "version": 2222,
      "versions": 2223,
      "behav": 2224,
      "particularly": 2225,
      "effective": 2226,
      "functions": 2227,
      "highly": 2228,
      "hostages": 2229,
      "require": 2230,
      "models": 2231,
      "Competition": 2232,
      "stewardess": 2233,
      "months": 2234,
      "Landesbanken": 2235,
      "Bohem": 2236,
      "merely": 2237,
      "series": 2238,
      "##ladesh": 2239,
      "credits": 2240,
      "coupons": 2241,
      "Egyptian": 2242,
      "Elena": 2243,
      "Sudan": 2244,
      "mainly": 2245,
      "machines": 2246,
      "written": 2247,
      "achievement": 2248,
      "primates": 2249,
      "organ": 2250,
      "international": 2251,
      "declined": 2252,
      "political": 2253,
      "newspapers": 2254,
      "Jerusal": 2255,
      "President": 2256,
      "Second": 2257,
      "hotel": 2258,
      "history": 2259,
      "##ughter": 2260,
      "stabil": 2261,
      "Institute": 2262,
      "changes": 2263,
      "sugg": 2264,
      "relatively": 2265,
      "territories": 2266,
      "current": 2267,
      "Transportation": 2268,
      "Isra": 2269,
      "Services": 2270,
      "available": 2271,
      "bonds": 2272,
      "clear": 2273,
      "cortex": 2274,
      "future": 2275,
      "gravit": 2276,
      "keep": 2277,
      "maximum": 2278,
      "tourists": 2279,
      "spokes": 2280,
      "scientists": 2281,
      "telephone": 2282,
      "opinion": 2283,
      "dominant": 2284,
      "Paulson": 2285,
      "emphasizes": 2286,
      "Bangladesh": 2287,
      "Geor": 2288,
      "General": 2289,
      "Sixth": 2290,
      "Ukrain": 2291,
      "UEFA": 2292,
      "Wednesday": 2293,
      "Wiesn": 2294,
      "biggest": 2295,
      "daughter": 2296,
      "essential": 2297,
      "herself": 2298,
      "holding": 2299,
      "hundred": 2300,
      "manga": 2301,
      "mentioned": 2302,
      "wrote": 2303,
      "inexpensive": 2304,
      "acquisition": 2305,
      "headphones": 2306,
      "television": 2307,
      "Jerusalem": 2308,
      "17": 2309,
      "59": 2310,
      "75": 2311,
      "80": 2312,
      "Am": 2313,
      "Af": 2314,
      "Ag": 2315,
      "Aw": 2316,
      "Ab": 2317,
      "Aust": 2318,
      "Ara": 2319,
      "Be": 2320,
      "Bu": 2321,
      "Bat": 2322,
      "Cr": 2323,
      "Cro": 2324,
      "Coles": 2325,
      "Ed": 2326,
      "Ein": 2327,
      "Fl": 2328,
      "Feb": 2329,
      "Gon": 2330,
      "Great": 2331,
      "Her": 2332,
      "Hess": 2333,
      "Hell": 2334,
      "Hang": 2335,
      "Hanz": 2336,
      "Jers": 2337,
      "Jans": 2338,
      "Luc": 2339,
      "Lond": 2340,
      "Library": 2341,
      "My": 2342,
      "Mer": 2343,
      "Ok": 2344,
      "Out": 2345,
      "Oct": 2346,
      "Per": 2347,
      "Pre": 2348,
      "Plym": 2349,
      "Rh": 2350,
      "Ram": 2351,
      "SV": 2352,
      "Seng": 2353,
      "School": 2354,
      "Swing": 2355,
      "Since": 2356,
      "Satur": 2357,
      "Sams": 2358,
      "Tra": 2359,
      "Tok": 2360,
      "UN": 2361,
      "Vir": 2362,
      "Vod": 2363,
      "Wu": 2364,
      "Wall": 2365,
      "aim": 2366,
      "airl": 2367,
      "average": 2368,
      "bar": 2369,
      "bent": 2370,
      "bir": 2371,
      "cz": 2372,
      "cent": 2373,
      "came": 2374,
      "cabinet": 2375,
      "circ": 2376,
      "dat": 2377,
      "dou": 2378,
      "del": 2379,
      "er": 2380,
      "emer": 2381,
      "fu": 2382,
      "fil": 2383,
      "ful": 2384,
      "fast": 2385,
      "found": 2386,
      "free": 2387,
      "front": 2388,
      "gold": 2389,
      "gaps": 2390,
      "gigg": 2391,
      "galling": 2392,
      "hel": 2393,
      "lit": 2394,
      "low": 2395,
      "land": 2396,
      "live": 2397,
      "lies": 2398,
      "light": 2399,
      "men": 2400,
      "mar": 2401,
      "mech": 2402,
      "mone": 2403,
      "past": 2404,
      "pock": 2405,
      "pence": 2406,
      "paid": 2407,
      "pull": 2408,
      "piec": 2409,
      "parking": 2410,
      "sk": 2411,
      "sat": 2412,
      "sell": 2413,
      "sum": 2414,
      "sack": 2415,
      "sold": 2416,
      "sudd": 2417,
      "tri": 2418,
      "tech": 2419,
      "tens": 2420,
      "treat": 2421,
      "tax": 2422,
      "vo": 2423,
      "vet": 2424,
      "wall": 2425,
      "wish": 2426,
      "wants": 2427,
      "woman": 2428,
      "yellow": 2429,
      "##ted": 2430,
      "##runk": 2431,
      "##eu": 2432,
      "##sid": 2433,
      "##ier": 2434,
      "##ipp": 2435,
      "##ium": 2436,
      "##iary": 2437,
      "##iod": 2438,
      "##ub": 2439,
      "##ues": 2440,
      "##ued": 2441,
      "##uation": 2442,
      "##uper": 2443,
      "##ais": 2444,
      "##les": 2445,
      "##ling": 2446,
      "##less": 2447,
      "##lik": 2448,
      "##yo": 2449,
      "##na": 2450,
      "##ness": 2451,
      "##vings": 2452,
      "##view": 2453,
      "##ob": 2454,
      "##oes": 2455,
      "##oper": 2456,
      "##oved": 2457,
      "##mers": 2458,
      "##hic": 2459,
      "##hib": 2460,
      "##for": 2461,
      "##fest": 2462,
      "##form": 2463,
      "##ci": 2464,
      "##cin": 2465,
      "##cisely": 2466,
      "##gin": 2467,
      "##gress": 2468,
      "##going": 2469,
      "##zed": 2470,
      "##zales": 2471,
      "##bt": 2472,
      "##be": 2473,
      "##bs": 2474,
      "##bach": 2475,
      "##ka": 2476,
      "##pic": 2477,
      "##put": 2478,
      "##press": 2479,
      "##pects": 2480,
      "##TS": 2481,
      "##jects": 2482,
      "theory": 2483,
      "##ering": 2484,
      "##erious": 2485,
      "##inc": 2486,
      "##ining": 2487,
      "##inct": 2488,
      "##inians": 2489,
      "##inistr": 2490,
      "##atin": 2491,
      "##ons": 2492,
      "##anism": 2493,
      "##ense": 2494,
      "##orus": 2495,
      "##orts": 2496,
      "##ederal": 2497,
      "##arm": 2498,
      "##ares": 2499,
      "tot": 2500,
      "toward": 2501,
      "##alth": 2502,
      "##reg": 2503,
      "##rees": 2504,
      "thank": 2505,
      "##itter": 2506,
      "##ising": 2507,
      "##isfied": 2508,
      "##ash": 2509,
      "##omen": 2510,
      "##elt": 2511,
      "##elka": 2512,
      "##ilt": 2513,
      "##entually": 2514,
      "##eten": 2515,
      "##rop": 2516,
      "force": 2517,
      "These": 2518,
      "##uter": 2519,
      "##leep": 2520,
      "##ided": 2521,
      "##idation": 2522,
      "##idual": 2523,
      "repl": 2524,
      "refer": 2525,
      "really": 2526,
      "reject": 2527,
      "##tering": 2528,
      "star": 2529,
      "stands": 2530,
      "##used": 2531,
      "##ural": 2532,
      "alth": 2533,
      "whip": 2534,
      "whose": 2535,
      "##imin": 2536,
      "aspects": 2537,
      "##owed": 2538,
      "##ession": 2539,
      "##amas": 2540,
      "##estinians": 2541,
      "within": 2542,
      "cond": 2543,
      "conn": 2544,
      "conduct": 2545,
      "##ceed": 2546,
      "##cement": 2547,
      "##earc": 2548,
      "##oses": 2549,
      "##osits": 2550,
      "note": 2551,
      "nothing": 2552,
      "analy": 2553,
      "proper": 2554,
      "proved": 2555,
      "proced": 2556,
      "project": 2557,
      "prohib": 2558,
      "proceed": 2559,
      "##rian": 2560,
      "##rians": 2561,
      "##ules": 2562,
      "##ulation": 2563,
      "exc": 2564,
      "exact": 2565,
      "excl": 2566,
      "except": 2567,
      "##ung": 2568,
      "##orth": 2569,
      "##ocr": 2570,
      "##arded": 2571,
      "##agg": 2572,
      "##aged": 2573,
      "##aging": 2574,
      "plans": 2575,
      "operate": 2576,
      "neigh": 2577,
      "neural": 2578,
      "true": 2579,
      "trade": 2580,
      "trying": 2581,
      "truck": 2582,
      "truly": 2583,
      "savings": 2584,
      "##bilities": 2585,
      "prime": 2586,
      "prison": 2587,
      "spite": 2588,
      "shrunk": 2589,
      "##oured": 2590,
      "##ources": 2591,
      "##ude": 2592,
      "##antage": 2593,
      "##ival": 2594,
      "##ividual": 2595,
      "weak": 2596,
      "char": 2597,
      "chall": 2598,
      "chance": 2599,
      "chief": 2600,
      "finding": 2601,
      "##ancy": 2602,
      "##ancing": 2603,
      "period": 2604,
      "compar": 2605,
      "compens": 2606,
      "compared": 2607,
      "computer": 2608,
      "lead": 2609,
      "level": 2610,
      "##apt": 2611,
      "health": 2612,
      "see": 2613,
      "unc": 2614,
      "unp": 2615,
      "unlik": 2616,
      "closed": 2617,
      "claim": 2618,
      "wouldn": 2619,
      "##ended": 2620,
      "percentage": 2621,
      "resolved": 2622,
      "researc": 2623,
      "death": 2624,
      "interven": 2625,
      "interview": 2626,
      "##ationship": 2627,
      "financing": 2628,
      "meet": 2629,
      "##ousing": 2630,
      "##sia": 2631,
      "##ression": 2632,
      "##aily": 2633,
      "##tober": 2634,
      "##ekend": 2635,
      "arri": 2636,
      "remind": 2637,
      "removed": 2638,
      "2009": 2639,
      "Weekend": 2640,
      "owns": 2641,
      "owned": 2642,
      "preced": 2643,
      "previous": 2644,
      "precisely": 2645,
      "##enced": 2646,
      "instru": 2647,
      "instead": 2648,
      "attests": 2649,
      "simple": 2650,
      "indep": 2651,
      "individual": 2652,
      "Americans": 2653,
      "became": 2654,
      "relationship": 2655,
      "specifically": 2656,
      "association": 2657,
      "assets": 2658,
      "display": 2659,
      "roads": 2660,
      "##attery": 2661,
      "regularly": 2662,
      "March": 2663,
      "payments": 2664,
      "control": 2665,
      "classical": 2666,
      "increased": 2667,
      "enough": 2668,
      "knew": 2669,
      "minister": 2670,
      "minutes": 2671,
      "share": 2672,
      "sharp": 2673,
      "Why": 2674,
      "While": 2675,
      "ends": 2676,
      "manner": 2677,
      "##erttember": 2678,
      "infrast": 2679,
      "weeks": 2680,
      "weekend": 2681,
      "deposits": 2682,
      "remains": 2683,
      "remained": 2684,
      "remaining": 2685,
      "##indows": 2686,
      "expert": 2687,
      "experts": 2688,
      "investment": 2689,
      "edge": 2690,
      "##pector": 2691,
      "agreed": 2692,
      "knows": 2693,
      "known": 2694,
      "Frat": 2695,
      "calls": 2696,
      "director": 2697,
      "police": 2698,
      "##ronic": 2699,
      "##munity": 2700,
      "probably": 2701,
      "Christ": 2702,
      "coach": 2703,
      "format": 2704,
      "suburb": 2705,
      "subsid": 2706,
      "include": 2707,
      "USA": 2708,
      "cash": 2709,
      "desire": 2710,
      "lawyers": 2711,
      "surpr": 2712,
      "##ruary": 2713,
      "##afone": 2714,
      "refused": 2715,
      "institution": 2716,
      "197": 2717,
      "All": 2718,
      "Anomaly": 2719,
      "BSA": 2720,
      "days": 2721,
      "opposed": 2722,
      "opportun": 2723,
      "returned": 2724,
      "vehic": 2725,
      "looking": 2726,
      "Syria": 2727,
      "demands": 2728,
      "eventually": 2729,
      "girls": 2730,
      "behind": 2731,
      "abducted": 2732,
      "Stocks": 2733,
      "particip": 2734,
      "particular": 2735,
      "rooms": 2736,
      "believes": 2737,
      "travelers": 2738,
      "Prime": 2739,
      "carry": 2740,
      "ident": 2741,
      "person": 2742,
      "talks": 2743,
      "talking": 2744,
      "requir": 2745,
      "advanced": 2746,
      "advantage": 2747,
      "impression": 2748,
      "competitor": 2749,
      "competitive": 2750,
      "competitors": 2751,
      "##ecommunication": 2752,
      "problems": 2753,
      "chec": 2754,
      "cheaper": 2755,
      "greatest": 2756,
      "listed": 2757,
      "merger": 2758,
      "occur": 2759,
      "occup": 2760,
      "##ields": 2761,
      "strict": 2762,
      "construction": 2763,
      "extrem": 2764,
      "seems": 2765,
      "seemed": 2766,
      "argument": 2767,
      "discus": 2768,
      "activity": 2769,
      "Express": 2770,
      "Sudeten": 2771,
      "local": 2772,
      "machine": 2773,
      "reduce": 2774,
      "small": 2775,
      "write": 2776,
      "##urbul": 2777,
      "achieved": 2778,
      "organs": 2779,
      "suffered": 2780,
      "meaning": 2781,
      "declining": 2782,
      "blocked": 2783,
      "reportedly": 2784,
      "investigate": 2785,
      "##rontal": 2786,
      "newspaper": 2787,
      "happened": 2788,
      "Adrian": 2789,
      "Asian": 2790,
      "Hispan": 2791,
      "easy": 2792,
      "following": 2793,
      "missing": 2794,
      "sensations": 2795,
      "##azine": 2796,
      "##ables": 2797,
      "children": 2798,
      "develop": 2799,
      "developer": 2800,
      "meantime": 2801,
      "prepared": 2802,
      "opened": 2803,
      "electronic": 2804,
      "functioning": 2805,
      "validity": 2806,
      "authority": 2807,
      "201": 2808,
      "Association": 2809,
      "Britain": 2810,
      "Palestinians": 2811,
      "affair": 2812,
      "basic": 2813,
      "celeb": 2814,
      "collect": 2815,
      "categories": 2816,
      "equipp": 2817,
      "medical": 2818,
      "metro": 2819,
      "selection": 2820,
      "victim": 2821,
      "walkman": 2822,
      "initially": 2823,
      "propos": 2824,
      "prosecutor": 2825,
      "places": 2826,
      "complet": 2827,
      "administr": 2828,
      "universal": 2829,
      "attacks": 2830,
      "captors": 2831,
      "registered": 2832,
      "continued": 2833,
      "understand": 2834,
      "divorce": 2835,
      "determine": 2836,
      "announced": 2837,
      "regulatory": 2838,
      "mortgage": 2839,
      "successful": 2840,
      "separate": 2841,
      "Democr": 2842,
      "Group": 2843,
      "Research": 2844,
      "Senate": 2845,
      "battle": 2846,
      "freed": 2847,
      "honoured": 2848,
      "launch": 2849,
      "milk": 2850,
      "magazine": 2851,
      "potential": 2852,
      "popular": 2853,
      "psychological": 2854,
      "situation": 2855,
      "taken": 2856,
      "words": 2857,
      "statement": 2858,
      "spots": 2859,
      "abuse": 2860,
      "chairman": 2861,
      "prefrontal": 2862,
      "assumed": 2863,
      "subjective": 2864,
      "refinancing": 2865,
      "Bohemia": 2866,
      "organized": 2867,
      "Israeli": 2868,
      "gravitational": 2869,
      "spokesman": 2870,
      "George": 2871,
      "Einstein": 2872,
      "Flight": 2873,
      "February": 2874,
      "Gonzales": 2875,
      "Hanzelka": 2876,
      "Jersey": 2877,
      "Jansen": 2878,
      "Luca": 2879,
      "London": 2880,
      "Oktober": 2881,
      "October": 2882,
      "Perhaps": 2883,
      "Plymouth": 2884,
      "Saturday": 2885,
      "Samsung": 2886,
      "Tokyo": 2887,
      "Virgin": 2888,
      "Vodafone": 2889,
      "Wuerttember": 2890,
      "airlines": 2891,
      "data": 2892,
      "fuel": 2893,
      "golden": 2894,
      "help": 2895,
      "litre": 2896,
      "mechanism": 2897,
      "money": 2898,
      "satisfied": 2899,
      "sackings": 2900,
      "sudden": 2901,
      "techn": 2902,
      "treatment": 2903,
      "voices": 2904,
      "##mersion": 2905,
      "rejected": 2906,
      "although": 2907,
      "procedure": 2908,
      "prohibit": 2909,
      "exclus": 2910,
      "neighb": 2911,
      "challeng": 2912,
      "preceding": 2913,
      "infrastructure": 2914,
      "suburban": 2915,
      "subsidiary": 2916,
      "surprise": 2917,
      "opportunity": 2918,
      "occupied": 2919,
      "Hispanic": 2920,
      "equipped": 2921,
      "Oktoberfest": 2922,
      "Wuerttemberg": 2923,
      "\",": 2924,
      "),": 2925,
      "..": 2926,
      "26": 2927,
      "24": 2928,
      "23": 2929,
      "37": 2930,
      "300": 2931,
      "45": 2932,
      "57": 2933,
      "App": 2934,
      "Act": 2935,
      "Aren": 2936,
      "Br": 2937,
      "Bar": 2938,
      "Bad": 2939,
      "Bow": 2940,
      "Bra": 2941,
      "Based": 2942,
      "Borus": 2943,
      "CB": 2944,
      "Cent": 2945,
      "Cow": 2946,
      "Cai": 2947,
      "Cabinet": 2948,
      "Dr": 2949,
      "De": 2950,
      "Du": 2951,
      "Des": 2952,
      "Dec": 2953,
      "Dark": 2954,
      "Due": 2955,
      "Dav": 2956,
      "Dann": 2957,
      "Does": 2958,
      "Damas": 2959,
      "Em": 2960,
      "Eart": 2961,
      "Econom": 2962,
      "Eric": 2963,
      "Fore": 2964,
      "Follow": 2965,
      "Fears": 2966,
      "Federal": 2967,
      "Fields": 2968,
      "Gu": 2969,
      "Glad": 2970,
      "GTS": 2971,
      "Hu": 2972,
      "HS": 2973,
      "HR": 2974,
      "Housing": 2975,
      "Iz": 2976,
      "Ira": 2977,
      "Jan": 2978,
      "Jos": 2979,
      "Kh": 2980,
      "Kar": 2981,
      "Kais": 2982,
      "Less": 2983,
      "Lance": 2984,
      "Mic": 2985,
      "Mil": 2986,
      "Main": 2987,
      "Mart": 2988,
      "More": 2989,
      "Mik": 2990,
      "Nor": 2991,
      "Nam": 2992,
      "Oil": 2993,
      "Our": 2994,
      "Pe": 2995,
      "PZ": 2996,
      "Par": 2997,
      "Pet": 2998,
      "Pank": 2999,
      "Public": 3000,
      "Private": 3001,
      "Qa": 3002,
      "Run": 3003,
      "Rock": 3004,
      "Rie": 3005,
      "Rates": 3006,
      "Rats": 3007,
      "Rather": 3008,
      "Se": 3009,
      "SI": 3010,
      "Sav": 3011,
      "Spect": 3012,
      "Sax": 3013,
      "Super": 3014,
      "Tu": 3015,
      "TV": 3016,
      "Tes": 3017,
      "Tach": 3018,
      "Tale": 3019,
      "Us": 3020,
      "Uly": 3021,
      "Ultimately": 3022,
      "Vas": 3023,
      "Vill": 3024,
      "Whe": 3025,
      "Yet": 3026,
      "Zia": 3027,
      "ast": 3028,
      "ability": 3029,
      "bad": 3030,
      "bri": 3031,
      "bod": 3032,
      "bord": 3033,
      "based": 3034,
      "budd": 3035,
      "battery": 3036,
      "cy": 3037,
      "cat": 3038,
      "cal": 3039,
      "col": 3040,
      "cand": 3041,
      "coin": 3042,
      "creat": 3043,
      "den": 3044,
      "dist": 3045,
      "died": 3046,
      "dram": 3047,
      "daily": 3048,
      "es": 3049,
      "eq": 3050,
      "ele": 3051,
      "each": 3052,
      "eng": 3053,
      "estate": 3054,
      "either": 3055,
      "epic": 3056,
      "fas": 3057,
      "fly": 3058,
      "fill": 3059,
      "fem": 3060,
      "file": 3061,
      "fix": 3062,
      "fellow": 3063,
      "foot": 3064,
      "felt": 3065,
      "gas": 3066,
      "got": 3067,
      "ho": 3068,
      "hom": 3069,
      "hus": 3070,
      "hur": 3071,
      "hall": 3072,
      "hence": 3073,
      "harm": 3074,
      "ir": 3075,
      "iP": 3076,
      "iH": 3077,
      "iri": 3078,
      "jun": 3079,
      "job": 3080,
      "kid": 3081,
      "kaw": 3082,
      "key": 3083,
      "kind": 3084,
      "li": 3085,
      "ll": 3086,
      "lat": 3087,
      "led": 3088,
      "ling": 3089,
      "lic": 3090,
      "lou": 3091,
      "let": 3092,
      "latter": 3093,
      "lists": 3094,
      "lane": 3095,
      "living": 3096,
      "mark": 3097,
      "mater": 3098,
      "nar": 3099,
      "nam": 3100,
      "oil": 3101,
      "po": 3102,
      "pen": 3103,
      "ple": 3104,
      "pain": 3105,
      "pri": 3106,
      "port": 3107,
      "pack": 3108,
      "pict": 3109,
      "pages": 3110,
      "phen": 3111,
      "paper": 3112,
      "path": 3113,
      "rar": 3114,
      "ris": 3115,
      "rate": 3116,
      "rout": 3117,
      "rang": 3118,
      "rough": 3119,
      "rock": 3120,
      "ride": 3121,
      "rights": 3122,
      "rounds": 3123,
      "rules": 3124,
      "rival": 3125,
      "sal": 3126,
      "sil": 3127,
      "sus": 3128,
      "south": 3129,
      "section": 3130,
      "swing": 3131,
      "satur": 3132,
      "sales": 3133,
      "sources": 3134,
      "ton": 3135,
      "tit": 3136,
      "tent": 3137,
      "tim": 3138,
      "tell": 3139,
      "targ": 3140,
      "tick": 3141,
      "triv": 3142,
      "tested": 3143,
      "trem": 3144,
      "turned": 3145,
      "turbul": 3146,
      "tables": 3147,
      "util": 3148,
      "ultimately": 3149,
      "vi": 3150,
      "vent": 3151,
      "vac": 3152,
      "vol": 3153,
      "vide": 3154,
      "view": 3155,
      "wis": 3156,
      "wond": 3157,
      "wire": 3158,
      "wife": 3159,
      "windows": 3160,
      "##tg": 3161,
      "##time": 3162,
      "##torney": 3163,
      "##tection": 3164,
      "##tini": 3165,
      "##ror": 3166,
      "##rap": 3167,
      "##ract": 3168,
      "##rating": 3169,
      "##rants": 3170,
      "##ees": 3171,
      "##eign": 3172,
      "##ext": 3173,
      "##eful": 3174,
      "##eiving": 3175,
      "##sw": 3176,
      "##self": 3177,
      "##ded": 3178,
      "##dly": 3179,
      "##duc": 3180,
      "##dra": 3181,
      "##dict": 3182,
      "##duce": 3183,
      "##iy": 3184,
      "##iq": 3185,
      "##iar": 3186,
      "##iate": 3187,
      "##uist": 3188,
      "##uary": 3189,
      "##uits": 3190,
      "##ault": 3191,
      "##lit": 3192,
      "##lass": 3193,
      "##line": 3194,
      "##lands": 3195,
      "##lusion": 3196,
      "##lier": 3197,
      "##yun": 3198,
      "##yway": 3199,
      "##ns": 3200,
      "##ney": 3201,
      "##va": 3202,
      "##vak": 3203,
      "##vant": 3204,
      "##vision": 3205,
      "##of": 3206,
      "##ox": 3207,
      "##ole": 3208,
      "##over": 3209,
      "##off": 3210,
      "##oever": 3211,
      "##my": 3212,
      "##mb": 3213,
      "##mor": 3214,
      "##fill": 3215,
      "##fri": 3216,
      "##fold": 3217,
      "##fair": 3218,
      "##father": 3219,
      "##cy": 3220,
      "##com": 3221,
      "##cel": 3222,
      "##cid": 3223,
      "##cell": 3224,
      "##coun": 3225,
      "##crib": 3226,
      "##gent": 3227,
      "##gers": 3228,
      "##gations": 3229,
      "##zer": 3230,
      "##zing": 3231,
      "##zil": 3232,
      "##zbank": 3233,
      "##zev": 3234,
      "##we": 3235,
      "##wh": 3236,
      "##whe": 3237,
      "##wal": 3238,
      "##wall": 3239,
      "##wise": 3240,
      "##wood": 3241,
      "##ban": 3242,
      "##band": 3243,
      "##bts": 3244,
      "##bath": 3245,
      "##ki": 3246,
      "##kes": 3247,
      "##pri": 3248,
      "##pond": 3249,
      "##pret": 3250,
      "##AC": 3251,
      "##PN": 3252,
      "##Ned": 3253,
      "##GB": 3254,
      "##ern": 3255,
      "##erve": 3256,
      "##eration": 3257,
      "##erate": 3258,
      "##iny": 3259,
      "##ined": 3260,
      "##inel": 3261,
      "##inary": 3262,
      "##atible": 3263,
      "##atini": 3264,
      "##anie": 3265,
      "##anish": 3266,
      "##esee": 3267,
      "##ene": 3268,
      "##orf": 3269,
      "##edly": 3270,
      "##ara": 3271,
      "##arations": 3272,
      "##aria": 3273,
      "often": 3274,
      "inte": 3275,
      "tow": 3276,
      "took": 3277,
      "tomor": 3278,
      "##alup": 3279,
      "##aleda": 3280,
      "##ingly": 3281,
      "##rel": 3282,
      "##reen": 3283,
      "##reas": 3284,
      "##ream": 3285,
      "##rets": 3286,
      "##rete": 3287,
      "##reci": 3288,
      "##icy": 3289,
      "##icit": 3290,
      "##icis": 3291,
      "##icator": 3292,
      "##icated": 3293,
      "##icient": 3294,
      "thro": 3295,
      "thirt": 3296,
      "##itable": 3297,
      "##itative": 3298,
      "##itude": 3299,
      "##ionally": 3300,
      "##ases": 3301,
      "##oms": 3302,
      "##omm": 3303,
      "##ele": 3304,
      "##elve": 3305,
      "##iliar": 3306,
      "##enty": 3307,
      "##ental": 3308,
      "##ecial": 3309,
      "##struct": 3310,
      "##sterious": 3311,
      "ongoing": 3312,
      "##room": 3313,
      "##rother": 3314,
      "##ross": 3315,
      "##roduce": 3316,
      "##lywood": 3317,
      "##otog": 3318,
      "forced": 3319,
      "forward": 3320,
      "forcing": 3321,
      "forget": 3322,
      "foresee": 3323,
      "Then": 3324,
      "ite": 3325,
      "##adu": 3326,
      "##ada": 3327,
      "##ades": 3328,
      "##adition": 3329,
      "##adium": 3330,
      "##adox": 3331,
      "##ayed": 3332,
      "##irers": 3333,
      "##utter": 3334,
      "##uters": 3335,
      "##uttg": 3336,
      "##iders": 3337,
      "##aced": 3338,
      "##acing": 3339,
      "##acter": 3340,
      "##aches": 3341,
      "##ached": 3342,
      "rear": 3343,
      "read": 3344,
      "repe": 3345,
      "reading": 3346,
      "readers": 3347,
      "reached": 3348,
      "stand": 3349,
      "stra": 3350,
      "stations": 3351,
      "stage": 3352,
      "story": 3353,
      "states": 3354,
      "stability": 3355,
      "stressed": 3356,
      "stored": 3357,
      "structure": 3358,
      "stadium": 3359,
      "##ury": 3360,
      "##urance": 3361,
      "along": 3362,
      "wholes": 3363,
      "aside": 3364,
      "##olidation": 3365,
      "##owing": 3366,
      "##esseld": 3367,
      "##hers": 3368,
      "##ami": 3369,
      "##amm": 3370,
      "##ament": 3371,
      "##vera": 3372,
      "##estial": 3373,
      "##estions": 3374,
      "haun": 3375,
      "haven": 3376,
      "withdra": 3377,
      "conse": 3378,
      "concent": 3379,
      "convin": 3380,
      "congress": 3381,
      "##ppers": 3382,
      "##ains": 3383,
      "##oslo": 3384,
      "noted": 3385,
      "notable": 3386,
      "##uced": 3387,
      "answ": 3388,
      "##embl": 3389,
      "##emia": 3390,
      "##emade": 3391,
      "##empor": 3392,
      "profic": 3393,
      "process": 3394,
      "projects": 3395,
      "produc": 3396,
      "##andon": 3397,
      "coming": 3398,
      "commission": 3399,
      "community": 3400,
      "##ulter": 3401,
      "##ulations": 3402,
      "execut": 3403,
      "##unte": 3404,
      "##arding": 3405,
      "##ager": 3406,
      "##mental": 3407,
      "never": 3408,
      "moved": 3409,
      "acts": 3410,
      "accept": 3411,
      "across": 3412,
      "tram": 3413,
      "trust": 3414,
      "tract": 3415,
      "tradition": 3416,
      "princ": 3417,
      "spent": 3418,
      "split": 3419,
      "shoot": 3420,
      "cancel": 3421,
      "##seep": 3422,
      "abandon": 3423,
      "chann": 3424,
      "##ualization": 3425,
      "perm": 3426,
      "perhaps": 3427,
      "perform": 3428,
      "##umi": 3429,
      "##ump": 3430,
      "compatible": 3431,
      "leaders": 3432,
      "sust": 3433,
      "##ghan": 3434,
      "marketing": 3435,
      "aged": 3436,
      "agent": 3437,
      "agree": 3438,
      "##usty": 3439,
      "##ustry": 3440,
      "adding": 3441,
      "adapt": 3442,
      "adulter": 3443,
      "seg": 3444,
      "sex": 3445,
      "seen": 3446,
      "season": 3447,
      "##ostr": 3448,
      "allowed": 3449,
      "uns": 3450,
      "units": 3451,
      "unfair": 3452,
      "clot": 3453,
      "closing": 3454,
      "ups": 3455,
      "##ffic": 3456,
      "##ffee": 3457,
      "##ender": 3458,
      "##endly": 3459,
      "##endous": 3460,
      "##merzbank": 3461,
      "Step": 3462,
      "Steph": 3463,
      "Stein": 3464,
      "Stuttg": 3465,
      "resign": 3466,
      "resident": 3467,
      "research": 3468,
      "reserved": 3469,
      "reserve": 3470,
      "##ignated": 3471,
      "deep": 3472,
      "door": 3473,
      "doing": 3474,
      "doors": 3475,
      "evening": 3476,
      "##opes": 3477,
      "##opher": 3478,
      "interpret": 3479,
      "Thuring": 3480,
      "##thday": 3481,
      "financer": 3482,
      "appl": 3483,
      "appar": 3484,
      "appoin": 3485,
      "appreci": 3486,
      "partial": 3487,
      "parties": 3488,
      "partner": 3489,
      "partners": 3490,
      "incap": 3491,
      "##ouses": 3492,
      "##ously": 3493,
      "##achutes": 3494,
      "Czechoslo": 3495,
      "##sibilities": 3496,
      "##actions": 3497,
      "##actments": 3498,
      "photog": 3499,
      "##aving": 3500,
      "##resses": 3501,
      "novel": 3502,
      "nobody": 3503,
      "saying": 3504,
      "accr": 3505,
      "access": 3506,
      "accord": 3507,
      "##portion": 3508,
      "##ervation": 3509,
      "arriv": 3510,
      "army": 3511,
      "receiving": 3512,
      "recomm": 3513,
      "##ension": 3514,
      "fired": 3515,
      "##itting": 3516,
      "consist": 3517,
      "consum": 3518,
      "considers": 3519,
      "consolidation": 3520,
      "banking": 3521,
      "soft": 3522,
      "remark": 3523,
      "virtually": 3524,
      "twice": 3525,
      "twelve": 3526,
      "twenty": 3527,
      "offers": 3528,
      "office": 3529,
      "2003": 3530,
      "positions": 3531,
      "##plest": 3532,
      "##plicit": 3533,
      "##quently": 3534,
      "award": 3535,
      "pret": 3536,
      "prefer": 3537,
      "##ences": 3538,
      "##encies": 3539,
      "install": 3540,
      "instance": 3541,
      "instruction": 3542,
      "attitude": 3543,
      "brings": 3544,
      "brake": 3545,
      "brightly": 3546,
      "simplest": 3547,
      "##respond": 3548,
      "indicator": 3549,
      "industry": 3550,
      "bills": 3551,
      "crimin": 3552,
      "emits": 3553,
      "immersion": 3554,
      "implicit": 3555,
      "output": 3556,
      "##unds": 3557,
      "species": 3558,
      "addressed": 3559,
      "##ipal": 3560,
      "##arge": 3561,
      "assess": 3562,
      "assault": 3563,
      "expect": 3564,
      "expects": 3565,
      "expressed": 3566,
      "blue": 3567,
      "blind": 3568,
      "blog": 3569,
      "caps": 3570,
      "drive": 3571,
      "driving": 3572,
      "overr": 3573,
      "roach": 3574,
      "roaches": 3575,
      "region": 3576,
      "planned": 3577,
      "mostly": 3578,
      "action": 3579,
      "actors": 3580,
      "Commerzbank": 3581,
      "grant": 3582,
      "graders": 3583,
      "##sson": 3584,
      "##sses": 3585,
      "##atedly": 3586,
      "Marcell": 3587,
      "involved": 3588,
      "##icted": 3589,
      "##ictability": 3590,
      "content": 3591,
      "contrib": 3592,
      "classified": 3593,
      "classroom": 3594,
      "increases": 3595,
      "entering": 3596,
      "encoun": 3597,
      "enactments": 3598,
      "mind": 3599,
      "ministry": 3600,
      "minimum": 3601,
      "##itution": 3602,
      "conclusion": 3603,
      "concrete": 3604,
      "shareh": 3605,
      "approve": 3606,
      "approval": 3607,
      "appropri": 3608,
      "considered": 3609,
      "considerations": 3610,
      "considerable": 3611,
      "aware": 3612,
      "Which": 3613,
      "White": 3614,
      "Whoever": 3615,
      "built": 3616,
      "crow": 3617,
      "ended": 3618,
      "manif": 3619,
      "manage": 3620,
      "maneu": 3621,
      "manager": 3622,
      "##ertain": 3623,
      "begun": 3624,
      "##ociations": 3625,
      "significance": 3626,
      "feet": 3627,
      "hands": 3628,
      "log": 3629,
      "loan": 3630,
      "longtime": 3631,
      "orders": 3632,
      "ordinary": 3633,
      "doesn": 3634,
      "book": 3635,
      "myself": 3636,
      "mysterious": 3637,
      "matters": 3638,
      "symb": 3639,
      "secured": 3640,
      "secret": 3641,
      "##gotten": 3642,
      "heads": 3643,
      "similarly": 3644,
      "similarity": 3645,
      "One": 3646,
      "below": 3647,
      "##inese": 3648,
      "##ormous": 3649,
      "student": 3650,
      "studies": 3651,
      "response": 3652,
      "responsibilities": 3653,
      "Attorney": 3654,
      "Franc": 3655,
      "Platini": 3656,
      "calling": 3657,
      "direction": 3658,
      "directly": 3659,
      "earlier": 3660,
      "effort": 3661,
      "genre": 3662,
      "polio": 3663,
      "publicly": 3664,
      "screen": 3665,
      "##redictability": 3666,
      "##olders": 3667,
      "Italy": 3668,
      "Cho": 3669,
      "China": 3670,
      "Chalup": 3671,
      "Chinese": 3672,
      "coat": 3673,
      "cover": 3674,
      "coffee": 3675,
      "formats": 3676,
      "negotiate": 3677,
      "negotiator": 3678,
      "charge": 3679,
      "charger": 3680,
      "whereas": 3681,
      "included": 3682,
      "USB": 3683,
      "despite": 3684,
      "describ": 3685,
      "designated": 3686,
      "surround": 3687,
      "worked": 3688,
      "##rupt": 3689,
      "refunds": 3690,
      "represent": 3691,
      "repave": 3692,
      "reports": 3693,
      "provide": 3694,
      "provision": 3695,
      "sooner": 3696,
      "groups": 3697,
      "supported": 3698,
      "boarding": 3699,
      "198": 3700,
      "Another": 3701,
      "backed": 3702,
      "certific": 3703,
      "passed": 3704,
      "schools": 3705,
      "##ibana": 3706,
      "realm": 3707,
      "confession": 3708,
      "brains": 3709,
      "brainer": 3710,
      "looks": 3711,
      "Polish": 3712,
      "demonst": 3713,
      "divided": 3714,
      "funds": 3715,
      "gains": 3716,
      "girlfri": 3717,
      "parole": 3718,
      "paradox": 3719,
      "parachutes": 3720,
      "solo": 3721,
      "terror": 3722,
      "versus": 3723,
      "##lined": 3724,
      "behave": 3725,
      "happens": 3726,
      "records": 3727,
      "recorded": 3728,
      "indexes": 3729,
      "concerning": 3730,
      "believed": 3731,
      "effectively": 3732,
      "generally": 3733,
      "networks": 3734,
      "Shi": 3735,
      "Shares": 3736,
      "carried": 3737,
      "careful": 3738,
      "hardware": 3739,
      "learn": 3740,
      "learning": 3741,
      "learned": 3742,
      "learners": 3743,
      "obs": 3744,
      "obtain": 3745,
      "obstruct": 3746,
      "senator": 3747,
      "sometimes": 3748,
      "##elius": 3749,
      "needed": 3750,
      "model": 3751,
      "transport": 3752,
      "transactions": 3753,
      "impro": 3754,
      "additional": 3755,
      "Company": 3756,
      "Compared": 3757,
      "certainty": 3758,
      "Board": 3759,
      "Bayern": 3760,
      "Department": 3761,
      "cheating": 3762,
      "economic": 3763,
      "joint": 3764,
      "occas": 3765,
      "server": 3766,
      "serious": 3767,
      "worse": 3768,
      "warned": 3769,
      "strange": 3770,
      "constant": 3771,
      "extension": 3772,
      "practice": 3773,
      "device": 3774,
      "argued": 3775,
      "credit": 3776,
      "creditors": 3777,
      "informed": 3778,
      "campaigns": 3779,
      "Exchange": 3780,
      "Others": 3781,
      "location": 3782,
      "reduced": 3783,
      "smart": 3784,
      "introduce": 3785,
      "inspector": 3786,
      "threaten": 3787,
      "animal": 3788,
      "primary": 3789,
      "internal": 3790,
      "appears": 3791,
      "buildings": 3792,
      "investigation": 3793,
      "returns": 3794,
      "happening": 3795,
      "Asia": 3796,
      "Jeremia": 3797,
      "Novera": 3798,
      "Prob": 3799,
      "Prosecut": 3800,
      "Preservation": 3801,
      "Space": 3802,
      "Secrets": 3803,
      "Telecommunications": 3804,
      "Telecommunication": 3805,
      "caused": 3806,
      "causing": 3807,
      "famous": 3808,
      "family": 3809,
      "familiar": 3810,
      "histor": 3811,
      "missed": 3812,
      "promot": 3813,
      "prompt": 3814,
      "restitution": 3815,
      "sensitive": 3816,
      "visible": 3817,
      "visualization": 3818,
      "##scure": 3819,
      "##iecki": 3820,
      "##aii": 3821,
      "staff": 3822,
      "profile": 3823,
      "profits": 3824,
      "Instead": 3825,
      "changed": 3826,
      "sugar": 3827,
      "measures": 3828,
      "measured": 3829,
      "preparations": 3830,
      "relativity": 3831,
      "elections": 3832,
      "territory": 3833,
      "Coach": 3834,
      "Palatin": 3835,
      "Soon": 3836,
      "airpl": 3837,
      "basis": 3838,
      "celestial": 3839,
      "draw": 3840,
      "drawn": 3841,
      "fifth": 3842,
      "fifty": 3843,
      "favour": 3844,
      "favored": 3845,
      "failure": 3846,
      "large": 3847,
      "largely": 3848,
      "lowering": 3849,
      "media": 3850,
      "message": 3851,
      "messages": 3852,
      "selected": 3853,
      "setting": 3854,
      "victory": 3855,
      "reaction": 3856,
      "reactions": 3857,
      "##uckily": 3858,
      "existence": 3859,
      "admirers": 3860,
      "universe": 3861,
      "physic": 3862,
      "physical": 3863,
      "continue": 3864,
      "definit": 3865,
      "definitive": 3866,
      "announcement": 3867,
      "mortgages": 3868,
      "separately": 3869,
      "350": 3870,
      "Bavarian": 3871,
      "Bavaria": 3872,
      "Cornwall": 3873,
      "Cornelius": 3874,
      "Enter": 3875,
      "Hollywood": 3876,
      "League": 3877,
      "Reuters": 3878,
      "delivered": 3879,
      "establ": 3880,
      "friends": 3881,
      "friendly": 3882,
      "motion": 3883,
      "posters": 3884,
      "quality": 3885,
      "qualitative": 3886,
      "radio": 3887,
      "vocal": 3888,
      "striking": 3889,
      "alleyway": 3890,
      "allegations": 3891,
      "explain": 3892,
      "prudent": 3893,
      "prudently": 3894,
      "absol": 3895,
      "absence": 3896,
      "choose": 3897,
      "Student": 3898,
      "artic": 3899,
      "possess": 3900,
      "critical": 3901,
      "criticis": 3902,
      "employ": 3903,
      "bloodbath": 3904,
      "conclude": 3905,
      "supposedly": 3906,
      "corporation": 3907,
      "corporate": 3908,
      "Republican": 3909,
      "Albert": 3910,
      "Alberto": 3911,
      "behaved": 3912,
      "requirements": 3913,
      "Sudanese": 3914,
      "stabilize": 3915,
      "stabilization": 3916,
      "suggested": 3917,
      "Ukraine": 3918,
      "Ukrainian": 3919,
      "Among": 3920,
      "Afghan": 3921,
      "Agency": 3922,
      "Awami": 3923,
      "Arab": 3924,
      "Building": 3925,
      "Crown": 3926,
      "Education": 3927,
      "Hesse": 3928,
      "Merl": 3929,
      "Prep": 3930,
      "Rhinel": 3931,
      "Ramones": 3932,
      "Traffic": 3933,
      "barrel": 3934,
      "bentos": 3935,
      "birthday": 3936,
      "circuits": 3937,
      "doubt": 3938,
      "delic": 3939,
      "erased": 3940,
      "emerged": 3941,
      "film": 3942,
      "fulfill": 3943,
      "pocket": 3944,
      "pieces": 3945,
      "trips": 3946,
      "veto": 3947,
      "##nappers": 3948,
      "total": 3949,
      "##regular": 3950,
      "thanks": 3951,
      "##omenon": 3952,
      "conditions": 3953,
      "analyzed": 3954,
      "property": 3955,
      "exceptions": 3956,
      "##agging": 3957,
      "character": 3958,
      "comparison": 3959,
      "compensation": 3960,
      "uncertain": 3961,
      "unpredictability": 3962,
      "unlike": 3963,
      "claims": 3964,
      "researchers": 3965,
      "intervene": 3966,
      "meeting": 3967,
      "instrumental": 3968,
      "independent": 3969,
      "Frattini": 3970,
      "Christopher": 3971,
      "vehicle": 3972,
      "identical": 3973,
      "required": 3974,
      "strictly": 3975,
      "extremely": 3976,
      "discussed": 3977,
      "Sudetenlands": 3978,
      "developed": 3979,
      "2010": 3980,
      "celebrating": 3981,
      "collections": 3982,
      "proposals": 3983,
      "completely": 3984,
      "mechanisms": 3985,
      "suddenly": 3986,
      "technolog": 3987,
      "exclusively": 3988,
      "neighbor": 3989,
      "challenge": 3990,
      "...": 3991,
      "Arena": 3992,
      "Baden": 3993,
      "Bowery": 3994,
      "Brazil": 3995,
      "Borussia": 3996,
      "CBGB": 3997,
      "Central": 3998,
      "Cowon": 3999,
      "Cairo": 4000,
      "Drzev": 4001,
      "Duesseld": 4002,
      "Despite": 4003,
      "December": 4004,
      "David": 4005,
      "Earth": 4006,
      "Ericsson": 4007,
      "Foreign": 4008,
      "Following": 4009,
      "Gladbach": 4010,
      "HSV": 4011,
      "HRE": 4012,
      "Izumi": 4013,
      "Iraq": 4014,
      "January": 4015,
      "Joseph": 4016,
      "Khaleda": 4017,
      "Kaiser": 4018,
      "Miche": 4019,
      "Martin": 4020,
      "Mikels": 4021,
      "Namely": 4022,
      "PZPN": 4023,
      "Paris": 4024,
      "Petric": 4025,
      "Pankseep": 4026,
      "Qaeda": 4027,
      "Rieger": 4028,
      "SIM": 4029,
      "Savings": 4030,
      "Supervision": 4031,
      "Tuesday": 4032,
      "Tesco": 4033,
      "Tachibana": 4034,
      "Taleban": 4035,
      "Ulysses": 4036,
      "Vasyun": 4037,
      "Village": 4038,
      "brief": 4039,
      "buddy": 4040,
      "coincid": 4041,
      "distinct": 4042,
      "dramatic": 4043,
      "element": 4044,
      "female": 4045,
      "homemade": 4046,
      "husband": 4047,
      "harmony": 4048,
      "irregular": 4049,
      "iPod": 4050,
      "iHNed": 4051,
      "iriver": 4052,
      "junior": 4053,
      "kidnappers": 4054,
      "kawaii": 4055,
      "linguist": 4056,
      "license": 4057,
      "loudly": 4058,
      "material": 4059,
      "narrow": 4060,
      "poor": 4061,
      "plea": 4062,
      "prior": 4063,
      "pictures": 4064,
      "phenomenon": 4065,
      "risky": 4066,
      "roughly": 4067,
      "saturated": 4068,
      "tonight": 4069,
      "title": 4070,
      "timing": 4071,
      "tells": 4072,
      "target": 4073,
      "trivial": 4074,
      "tremendous": 4075,
      "viol": 4076,
      "ventures": 4077,
      "vaccin": 4078,
      "volunte": 4079,
      "video": 4080,
      "##raph": 4081,
      "##ique": 4082,
      "##vakia": 4083
    }
  }
}